[PAD]
[UNK]
[START]
[END]
!
"
#
$
%
&
'
(
)
*
+
,
-
.
/
0
1
2
3
4
5
6
7
8
9
:
;
=
?
@
[
\
]
^
_
`
a
b
c
d
e
f
g
h
i
j
k
l
m
n
o
p
q
r
s
t
u
v
w
x
y
z
{
|
}
~
¢
¥
°
·
¿
×
đ
‿
⁄
€
⋯
、
。
《
》
「
」
『
』
あ
い
う
え
お
か
き
く
け
こ
さ
し
す
せ
そ
た
ち
っ
つ
て
と
な
に
の
は
へ
ほ
ま
み
め
も
ゃ
や
ら
り
る
れ
を
ん
ア
ィ
イ
オ
カ
ク
サ
シ
ス
タ
ッ
ツ
テ
ト
ナ
ニ
ハ
ヒ
フ
ホ
ミ
メ
モ
ュ
ラ
ル
レ
ン
・
ー
一
丁
七
三
上
下
不
且
东
两
个
中
串
丹
为
主
久
么
之
乌
乎
也
买
乳
乾
亂
了
二
于
五
些
交
亦
享
京
亮
人
什
仁
今
介
仍
从
仔
他
仙
代
令
以
们
价
任
份
伙
会
似
但
位
低
住
体
何
作
你
使
來
例
供
価
便
係
保
信
個
們
倒
候
值
假
偏
做
停
備
傳
傻
像
價
優
儿
元
充
先
光
免
入
內
全
兩
八
公
共
关
兴
其
内
再
写
冬
冰
冷
净
凉
凍
几
出
分
切
列
別
刨
利
别
到
制
刺
刻
剉
前
剛
創
功
加
务
動
務
包
化
北
區
十
千
升
午
半
单
卖
南
卡
卤
印
却
卷
厚
原
厲
去
又
叉
及
友
双
反
发
取
受
口
另
只
叫
可
台
右
号
司
吃
各
合
同
名
后
向
吗
吧
吸
告
员
呢
呱
味
呼
和
品
哈
員
哥
哦
唔
唯
商
啊
問
啥
啦
善
喔
喜
喝
單
営
嘛
噌
嚮
四
回
因
国
圆
圈
國
圓
在
地
均
坐
基
堂
堡
報
場
境
墙
壁
壓
士
外
多
夜
够
夠
大
天
太
夫
失
头
奇
套
奥
女
奶
她
好
如
妈
妹
妻
始
姐
姗
娘
嫩
子
存
季
学
它
安
完
宗
定
实
実
客
家
容
寄
富
寒
實
寫
寬
对
寿
將
對
小
少
尔
尚
尤
就
局
层
居
屠
山
嵐
川
工
左
差
己
已
巷
市
布
帰
帶
常
干
平
年
并
幸
幾
底
店
府
度
座
康
廚
廣
廳
建
开
式
引
張
強
强
形
彩
待
很
律
後
得
從
復
微
心
必
忍
忙
快
念
态
怎
怕
思
性
总
情
惠
想
意
愛
感
態
應
成
我
或
房
所
手
才
打
找
抄
把
抵
抹
拉
拌
拍
招
择
拼
拿
持
指
挺
捨
捲
排
接
控
推
提
搭
搶
撩
擇
擺
攤
收
改
放
政
敞
整
數
文
料
新
方
於
旁
无
既
日
早
时
旺
明
星
是
時
晒
晚
晨
普
智
暖
更
曾
最
會
月
有
朋
服
望
期
木
末
本
杏
村
来
杨
杯
東
板
极
果
枝
枱
柔
样
格
桌
桶
梅
條
棒
椅
椒
椰
業
極
様
樓
模
樣
機
檯
櫃
次
欢
欲
款
歡
正
每
比
民
氣
水
汁
求
江
汤
沒
沙
没
河
油
治
法
波
注
泰
洋
洗
活
流
浆
浓
浪
海
消
涼
淡
淨
深
混
清
温
港
湛
湯
湾
溫
滑
满
滷
滿
漂
漢
潔
潢
濃
灣
火
炎
炒
炸
点
為
烈
烏
烤
烧
烫
热
焗
無
然
煎
照
煩
煮
熱
燉
燒
營
燥
爱
爽
牆
片
牌
牙
牛
物
特
狂
獲
率
玉
王
环
现
珍
珠
現
球
理
環
瓜
甘
甚
甜
生
用
由
異
當
疫
瘋
發
白
百
的
皇
皮
盐
盒
盖
目
直
相
看
真
眼
知
碗
碟
福
种
種
稱
空
立
第
笼
等
筷
算
簡
米
类
粉
精
糕
糖
系
紅
級
素
紫
細
結
絕
給
絲
經
綠
红
级
结
给
绝
续
绿
置
羊
美
群
翅
老
而
聚
肆
肉
肥
肺
能
脆
腐
腩
腸
腿
膠
自
至
臺
與
舒
般
良
色
芋
芒
芝
花
芳
茄
茶
草
荐
莓
菜
華
落
著
葡
蓋
蔥
薦
處
蚵
蛋
蛮
蜂
蜜
行
裝
裡
西
要
見
規
親
覺
见
觉
解
計
記
設
註
評
試
話
該
說
調
請
謝
讓
讚
让
试
话
说
谢
豆
豐
豚
象
買
費
賣
質
贵
费
起
超
足
距
跟
路
身
車
較
软
较
辣
边
过
近
还
这
连
迫
退
送
适
选
這
通
連
週
進
運
過
道
適
選
還
邊
那
部
都
鄉
配
酥
酱
酸
醋
釆
里
重
量
金
銀
鋪
錢
錯
鍋
鐵
钱
错
門
開
間
闆
间
附
陋
限
除
隔
隨
难
雖
雞
難
需
露
青
非
面
順
頭
題
類
顧
顿
風
食
飯
飲
飾
餅
餐
館
饭
饮
饺
馆
馒
香
骨
體
高
鮮
鱼
鲜
鸡
鹽
麗
麥
麵
麻
麼
黄
黑
點
齊
龍
龙
the
and
to
it
was
is
of
tea
in
for
they
with
but
my
this
that
you
place
so
not
have
are
on
good
their
we
milk
had
boba
like
as
there
be
were
here
very
at
bubble
if
just
food
get
out
great
one
drink
can
me
really
all
drinks
also
or
time
go
too
back
from
which
when
ve
try
service
would
sweet
got
more
up
other
love
ice
some
only
order
ordered
because
your
will
what
nice
definitely
##s
about
don
been
delicious
no
pretty
come
little
has
an
taste
by
best
always
chicken
well
than
even
menu
them
fresh
first
tried
flavor
friendly
sugar
didn
cream
our
came
much
teas
re
staff
do
after
make
green
made
places
super
people
better
recommend
favorite
think
bit
how
she
again
since
new
still
taro
could
want
small
lot
area
rice
fruit
hot
right
amazing
though
location
mango
way
flavors
us
wasn
pearls
went
wait
many
coffee
never
know
any
ll
tasted
did
down
restaurant
around
sure
give
while
before
thai
pho
different
two
most
then
over
next
few
spot
day
something
now
he
who
both
take
matcha
shop
soup
price
say
am
times
jelly
options
bad
going
fried
quality
perfect
pork
find
friends
cute
everything
off
ever
clean
long
worth
every
overall
see
10
however
thing
friend
tapioca
said
free
minutes
experience
parking
tasty
another
coming
sauce
less
customer
beef
black
large
inside
quite
sweetness
spicy
probably
usually
side
its
toppings
enough
where
being
cup
##ing
asked
same
noodles
hard
took
stars
50
dessert
eat
chewy
big
##ed
strawberry
top
kind
use
visit
her
maybe
soft
into
regular
looking
wanted
actually
bowl
work
store
should
prices
lunch
found
line
busy
feel
amount
smoothie
egg
awesome
quick
atmosphere
selection
half
disappointed
coconut
size
things
asian
honey
open
seating
thought
brown
getting
cheese
used
nothing
these
decent
cafe
loved
ask
such
once
trying
happy
each
variety
chinese
last
need
add
far
tables
highly
why
real
decided
waffle
home
fast
away
isn
red
extra
stop
special
huge
lychee
those
##y
cold
enjoy
makes
fan
vietnamese
##ly
especially
##d
without
customers
look
dumplings
counter
anything
ok
tastes
enjoyed
owner
night
house
put
refreshing
choose
wish
meat
instead
dishes
almost
check
bubbles
else
items
high
doesn
dish
yummy
table
noodle
told
during
boston
review
iced
liked
okay
let
texture
fu
gave
comes
offer
meal
cool
street
least
itself
close
opened
today
star
full
slush
having
lots
must
quickly
town
space
kung
serve
rolls
either
taiwanese
bean
jasmine
excellent
decor
finally
ordering
30
won
tofu
level
light
might
waiting
couple
yet
water
sandwich
oolong
broth
desserts
shaved
business
mi
making
shrimp
ramen
wrong
left
absolutely
working
helpful
although
looked
everyone
ingredients
cake
orders
through
chocolate
may
outside
eating
own
sit
point
family
craving
reviews
does
door
tell
person
seems
front
latte
fun
already
dinner
unique
pot
second
cooked
yelp
plus
snow
yogurt
haven
balls
opening
##e
keep
couldn
option
sometimes
saw
three
authentic
flavorful
sushi
cashier
whole
wouldn
plenty
his
extremely
austin
pay
portland
smoothies
added
felt
white
served
pick
pearl
portion
able
poke
pudding
week
strong
excited
glad
20
until
shops
available
employees
crispy
looks
often
located
banh
myself
avocado
ones
seemed
card
interior
creamy
cash
perfectly
powder
expensive
grass
mochi
style
years
popcorn
walk
end
part
hang
near
sandwiches
fries
girl
curry
fish
reason
soon
seem
bar
warm
oh
average
15
bland
done
cheap
yes
husband
##a
foam
stuff
vegan
walked
##er
waffles
behind
orlando
waited
slow
bring
old
several
someone
cups
ended
buy
honestly
games
money
bao
guess
name
restaurants
rather
choices
korean
expect
compared
chinatown
stopped
fine
grab
hours
topping
original
wonderful
simple
bread
portions
##t
lemon
guy
salad
roll
mix
days
mind
##r
passion
drive
flavour
fantastic
choice
etc
study
hour
wall
##o
slightly
live
between
reasonable
frozen
music
bbt
surprised
lady
return
easy
called
recommended
boyfriend
vancouver
almond
literally
treat
limited
hope
impressed
ready
prefer
##n
late
gets
filling
later
wifi
popular
pricey
fact
kids
twice
across
server
crepe
based
summer
run
unfortunately
type
flavored
salty
interesting
classic
pastries
recently
aren
peach
bowls
please
spring
deal
rose
others
believe
pieces
ago
bakery
call
heard
room
taking
weird
overly
standard
workers
along
yum
group
modern
bun
sesame
syrup
veggies
packed
leave
lol
chai
snacks
together
environment
25
owners
rude
care
sitting
change
hit
seen
anyone
priced
expected
salt
totally
mixed
toast
cha
filled
afternoon
solid
tasting
due
sign
worst
traditional
consistency
juice
straw
wow
combo
given
soy
help
non
brought
miss
weren
similar
personally
drinking
local
chill
crowded
visited
fix
sip
atlanta
understand
locations
terrible
board
doing
sour
world
hand
addition
basically
disappointing
course
taiwan
noticed
mall
remember
buns
basil
gone
him
mine
past
coco
started
watered
bite
cakes
giving
usual
offered
year
dry
cozy
play
snack
spots
burger
kinda
finish
pad
serving
closed
opinion
needed
tiny
read
vanilla
charge
chance
number
paid
blended
wife
seriously
quiet
visiting
75
share
vibe
start
pleasant
smaller
tip
exactly
problem
thank
including
actual
wings
favorites
healthy
consistent
plastic
note
trip
short
under
beautiful
typical
veggie
fairly
guys
idea
forward
longer
needs
four
ambiance
pineapple
plain
watermelon
##i
park
earl
walking
completely
feeling
yourself
chatime
takes
bottom
##h
five
mean
cost
weekend
grey
hands
wide
signature
chairs
mouth
convenient
stick
set
gotten
arrived
medium
spice
generous
customize
rest
man
winter
100
gem
welcoming
plate
nearby
pictures
japanese
##l
kept
ate
saturday
empty
fruits
mins
within
condensed
young
lavender
stay
loud
thick
comfortable
normal
beans
baked
credit
vegetarian
mostly
mediocre
kitchen
life
register
phone
chain
normally
delivery
belly
prepared
bbq
establishment
royal
saying
corner
dumpling
job
cards
appreciate
downtown
combination
list
salmon
bright
manager
upon
employee
forgot
crepes
cut
whatever
easily
knew
fair
california
entire
unless
alright
expecting
ginger
dairy
fruity
glass
roasted
spacious
oreo
mini
sad
sunday
anywhere
plaza
questions
12
shopping
barely
item
dining
goes
vegetables
center
base
tender
crazy
##es
##g
neighborhood
despite
received
seats
tuna
whenever
sell
smooth
##p
horrible
rich
months
orange
paying
low
single
future
pop
overpriced
artificial
sat
bitter
mousse
simply
popping
smell
otherwise
waitress
case
rolled
milky
city
considering
dirty
hut
mention
daughter
donuts
meet
breakfast
jellies
joint
offers
immediately
car
savory
school
buford
anyway
sorry
garlic
attentive
says
chunks
##al
lovely
cannot
split
issue
multiple
stand
hidden
watery
changed
favourite
shake
##m
expectations
cheaper
nicely
personal
main
##k
bought
asking
servers
mom
richmond
strawberries
college
incredibly
sweeter
chose
satisfied
nuggets
version
cause
grand
grilled
sort
pepper
unlike
finished
perhaps
sister
lack
middle
foods
types
ahead
concept
crab
closer
aloe
except
bunch
value
campus
difference
flavours
total
##ness
suggest
market
presentation
seafood
sizes
crunchy
early
juicy
general
heavy
steamed
gong
grapefruit
honeydew
rating
sweetened
bits
picture
instagram
thanks
write
covid
cheesecake
difficult
evening
caramel
using
forget
11
seeing
ball
become
bobas
date
hype
known
lived
ton
anymore
clear
brewed
adjust
peanut
sharetea
basic
hungry
potato
ran
bigger
freshly
lacking
surprisingly
eaten
minute
per
returning
disappoint
greeted
sauces
closing
playing
moved
sized
thinking
update
complaint
students
attitude
affordable
starbucks
tons
00
means
turned
##able
bathroom
vermicelli
herbal
fat
above
happened
online
various
talking
square
##u
kft
liking
sample
apple
blend
taken
higher
##in
hint
seat
serves
##c
works
min
froyo
studying
onion
balance
chili
decide
supposed
truly
corn
goods
poor
smile
product
surprise
north
topped
apparently
sea
building
friday
patient
talk
clearly
zero
consistently
takeout
casual
hate
banana
spend
anyways
bomb
elsewhere
none
che
girls
mentioned
tart
willing
hangout
macarons
bambu
kimchi
natural
design
levels
macaroons
waste
gross
hear
efficient
salted
shared
dont
sold
larger
rush
specialty
stir
dark
piece
terms
##le
bag
fill
party
plan
95
gives
leaves
ambience
helped
treats
certainly
self
stores
shot
box
extensive
pastry
kong
pricing
seated
samples
frequent
loves
meh
app
reasonably
worked
compare
true
break
touch
cone
butter
meals
somewhere
weeks
heart
bahn
missing
awful
decorated
hoping
pink
selections
puff
sticky
straight
floor
honest
hopefully
melon
relaxing
window
picked
show
son
oil
whether
yesterday
lines
morning
reading
included
matter
odd
alone
brick
creme
recommendations
china
hong
beverage
king
walls
additional
blueberry
station
paper
polite
cook
dollars
face
incredible
monster
omg
placed
leaf
attention
bay
overwhelming
watch
pleasantly
##th
baguette
punch
groups
chips
par
##st
head
relatively
stamp
pm
woman
la
realized
turn
feels
lactose
machine
mood
typically
adorable
chew
system
thin
candy
speak
beverages
worker
brew
reminds
slices
wanting
adding
purchase
somewhat
disappointment
durian
fluffy
aesthetic
chat
fancy
tough
lounge
waiter
wonton
99
art
greasy
mushy
soggy
opted
certain
kinds
##ble
running
soups
checking
depending
pre
downside
game
cookies
purple
forever
french
photos
process
##ers
die
save
##an
besides
sadly
seasoned
specials
english
everywhere
support
avoid
awhile
heat
include
yeah
##on
finding
goodness
provide
west
sense
deep
lemonade
wise
relax
scoop
themselves
40
catch
pass
crowd
likely
mistake
month
worse
cents
tonight
picky
color
confused
golden
particular
bites
loose
sugary
beaverton
appetizer
cap
pan
strange
american
sooo
visits
consider
mocha
spent
bill
donut
obviously
possible
social
generally
passionfruit
perfection
points
haha
products
beyond
dragon
girlfriend
previous
tad
highway
kick
mint
powdered
tasteless
def
imagine
range
satisfying
paris
tend
menus
tax
##b
im
mess
daily
owned
pancake
reminded
45
tooth
allston
book
charged
vivi
lime
plates
towards
70
notice
welcome
bf
bottle
boy
nor
vegetable
stuck
stomach
explain
folks
hanging
chop
road
delish
word
brisket
eye
leaving
lucky
comfy
post
ridiculous
steak
complain
dine
satisfy
accommodating
bc
knows
mayo
continue
dim
discovered
florida
##ion
##nt
dan
fake
teriyaki
everyday
tom
gluten
protein
crisp
disgusting
driving
legit
safe
south
explained
inviting
seeds
soooo
discount
beat
complaints
east
weekends
##w
hair
alternative
dollar
##en
##ic
answer
crave
custard
recommendation
tap
truck
##ry
##x
lover
outstanding
regret
stood
sum
cravings
damn
offering
absolute
appetizers
court
creative
powdery
puffs
##te
cabbage
eyes
fusion
sago
third
##ive
bother
cuisine
knowledgeable
sounds
checked
container
##ies
cookie
couches
double
threw
hole
pickled
request
kid
##ie
bucks
harvard
homemade
quincy
duck
gonna
ratio
step
bonus
figure
hold
trendy
drank
management
standing
aside
##ce
pleased
strip
whipped
experienced
heaven
appreciated
braised
gotta
lotus
neat
minimum
watching
crunch
nearly
positive
straws
improve
particularly
photo
putting
combinations
realize
skip
kiwi
moment
slight
slushy
subtle
##ity
80
below
bulgogi
chef
delightful
onions
sick
sweets
apart
blue
businesses
happen
staffs
lost
move
tiramisu
##rs
liquid
accept
bento
conversation
wintermelon
wontons
worthy
degrees
mild
drop
lower
nyc
receipt
ten
weather
entree
miso
throw
cilantro
ding
slushes
throughout
admit
fit
icy
sliced
varieties
viet
correct
phenomenal
suggested
currently
match
bakeries
carry
cucumber
enjoyable
hip
kombucha
##ge
##ish
covered
outlets
biggest
brand
mein
sprouts
espresso
##ty
allow
mainly
round
specifically
stopping
familiar
caffeine
comparable
fave
jar
sucks
company
form
houston
oily
columbus
flavoring
lacked
sides
tv
issues
offerings
##ment
obsessed
luckily
seaweed
yo
cooking
entrees
experiences
negative
baby
didnt
organic
pandan
bacon
birthday
impressive
likes
peppercorn
taiyaki
wanna
fav
hey
burgers
display
lettuce
tho
##ck
eats
horchata
##ped
earlier
block
broccoli
crystal
fi
lemongrass
hotpot
important
baos
fell
seattle
wonder
##ia
eggs
figured
juices
nutella
situation
##ting
drove
enjoying
lo
meats
##f
asia
brother
properly
wi
adds
balanced
cafes
confusing
overcooked
##re
met
refund
stumbled
delivered
possibly
rewards
twist
giant
preference
seasoning
stronger
##ation
##ling
##ted
agree
##ful
addicted
haus
listed
milkshake
notch
recent
##ve
carrots
creamer
fry
outdoor
papaya
random
flavorless
layer
separate
sub
entrance
posted
dropped
melted
##us
annoying
raw
till
trust
fault
lighting
missed
suggestions
sips
squid
wants
patrons
rate
shouldn
prepare
showed
conveniently
funny
meant
san
takoyaki
bibimbap
pancakes
awkward
dog
major
sun
suppose
undercooked
competition
lollicup
student
traffic
words
barista
cons
oregon
rare
writing
ample
cotton
messed
##ring
assortment
ground
living
provided
quantity
yellow
receive
yogurberry
famous
lid
pie
slice
tealuxe
temperature
yay
##est
##less
among
describe
hk
question
windows
##ier
distance
impression
teapioca
beer
closest
create
rainbow
##ally
chains
complete
croissant
doubt
somehow
standards
telling
windmill
13
16
god
hits
pros
##se
brulee
inconsistent
lattes
toasted
batter
cloud
frequently
joints
mangonada
preferred
section
comparison
luck
overpowering
pleasing
powders
seasonal
##iness
hwy
meeting
oz
stale
comment
fully
laptop
theirs
##ng
comfort
hubby
moving
regardless
trash
2nd
air
combos
control
diluted
dough
royaltea
hadn
handle
moist
shakes
steep
originally
skin
starting
##ch
decorations
desert
dipping
tucked
buying
lovers
neither
signs
breads
mushrooms
reasons
co
favor
pizza
stuffed
ube
uses
wrap
yi
common
story
sausage
udon
berry
cart
caught
colorful
ins
jenga
minimal
partner
pots
prompt
bo
fragrant
hooked
st
upset
##ping
improved
weekday
wrapped
allowed
bogo
chewiness
dip
monday
slushie
##nce
firm
slushies
ladies
townshend
ut
aware
chow
coast
eventually
following
tai
costs
flat
helping
lit
pure
spectacular
against
cramped
health
picking
sound
effort
momoko
setting
enter
franchise
intolerant
ive
raspberry
smelled
anytime
further
ideal
melt
paste
program
smells
grocery
knowing
nasty
shame
spoon
stayed
##0
brings
com
office
promotion
spices
therefore
deliver
doors
hello
lightly
season
tiger
##red
floral
hell
york
buds
macaron
moon
premium
pricier
pumpkin
cubes
nonetheless
onto
potential
fall
hearing
sharing
sweetener
yakult
##tion
aka
background
careful
express
fang
handed
areas
community
turns
bulb
cali
constantly
fiance
individual
inexpensive
key
lighter
rock
30pm
customizable
kungfu
regularly
velvet
curious
eel
lake
passed
six
tips
weekly
##ts
adventurous
upstairs
win
annoyed
cuz
drinker
freshness
lastly
requested
vera
weak
##am
changes
interested
overwhelmed
restroom
wished
calling
fro
skeptical
complex
courteous
decision
includes
panda
brunch
hipster
salads
scene
14
couch
easier
fatty
lights
marinated
series
shaped
thoroughly
tomato
##ized
aesthetically
assume
became
btw
professional
batch
bringing
decently
dolphin
keeps
pandemic
pulled
screen
superb
debit
fabulous
formosa
laid
rarely
saigon
##ss
coffees
afterwards
appealing
blown
central
exceptional
hardly
informed
pricy
event
purchased
qq
vibes
whip
alot
dinesty
example
lately
malden
remake
serious
specific
subpar
##z
build
calm
grabbed
happens
rainy
spending
team
uber
vs
19
aftertaste
cinnamon
mr
names
recipe
selling
tired
##or
blocks
delight
dressing
macchiato
minus
msg
nights
plants
presented
trouble
website
##ate
beautifully
deserves
loyalty
occasions
speaking
suggestion
travel
via
pickup
shows
sounded
training
zencha
containers
crushed
dong
relaxed
ways
##me
creama
dried
gelato
worry
cant
garden
grew
masks
milktea
returned
search
services
staying
suno
tang
18
agreed
ca
cleanliness
cocoa
cones
infused
reviewers
states
supreme
uncomfortable
##ne
##ous
flavourful
gentleman
handful
potatoes
rave
soju
tacos
thats
ave
furniture
fyi
macaroon
onigiri
paired
planning
staple
syrups
tempura
wearing
##ize
finishing
follow
icecream
joy
satay
shredded
##ke
bathrooms
choosing
equally
scallion
soo
thursday
warning
yifang
yocha
accommodate
focus
lazy
media
newly
opt
train
alcohol
bamboo
bobba
burnt
faster
reusable
robson
stands
##ent
answered
cronut
essentially
katsu
patio
remembered
repeat
rushed
sipping
90
arrive
beware
colors
dr
gift
hazelnut
introduced
massive
notes
prior
thumbs
underwhelming
bagel
chatting
hopes
layout
pro
refused
sells
shanghai
tight
zen
##sh
goodies
learn
page
view
xiao
##2
##ra
##ter
boxes
current
judge
learned
oat
pack
te
##ning
according
amazingly
bee
blends
colonial
correctly
darn
improvement
plentiful
sticks
texas
wednesday
##ar
carrot
decoration
dream
everytime
fire
hurry
imo
ingredient
pour
queen
sometime
sriracha
substitute
tuesday
xlb
complimentary
greens
heading
older
pistachio
quaint
wooden
written
##led
##ro
drizzle
glasses
mad
peak
cover
crap
excuse
managed
movie
pointed
stairs
welcomed
con
custom
krungthep
pdx
sichuan
szechuan
hasn
hence
peanuts
soaked
sooooo
teahouse
##ving
establishments
explaining
initially
needless
proper
treated
unsweetened
vacation
35
array
depends
harder
infusions
internet
meaning
members
mixture
sno
strongly
thus
##4
##der
customization
exact
houses
nicer
opportunity
yelpers
##tea
begin
burnaby
calories
class
japan
mung
watched
##age
##ee
##ged
##ue
competitors
facebook
greet
hi
hokkaido
ish
leftovers
parents
sale
##ated
##ine
##ut
bing
burrito
cambridge
convenience
heck
mask
nope
public
##et
advertised
dead
happily
numerous
pocky
popped
##ned
duluth
exciting
healthier
impossible
inspired
jars
peppers
softer
spoiled
##1
boiled
canada
cousin
rangoon
secret
select
acceptable
changing
content
deals
guests
loaded
stated
ya
10pm
1st
addicting
ass
dozen
ew
hotel
jalapenos
ons
ourselves
state
##8
##ious
##it
##ll
afraid
bubbletea
cheetos
lamb
occasionally
pain
runs
spread
thicker
##pm
entering
lose
##6
##ant
##el
airy
coupon
deserve
keeping
refill
##ur
brian
growing
majority
melts
patty
promptly
sealed
settled
slowly
##os
9pm
atl
bus
flower
holy
hue
jalapeno
piping
policy
spaces
stock
textures
warned
##ist
buck
desired
ig
ny
rated
sets
suck
##ure
23rd
description
fridge
hesitant
instant
machines
minced
mixing
mother
seconds
speed
sunny
test
##nd
bummer
handmade
kinks
messy
mozart
organized
searching
spoke
starts
theme
ucf
##um
bottles
cleaning
delicate
doraville
metro
pate
ridiculously
sampled
whatsoever
women
younger
##at
aesthetics
fixed
importantly
mart
nobody
played
shit
talked
tan
wasnt
24
broken
foot
obvious
problems
ribs
soda
thankfully
addict
bet
directly
distancing
dogs
halo
pomelo
response
semi
tangy
understandable
##id
advice
factor
fans
float
midtown
previously
shave
##ps
##ta
alberta
baristas
butterfly
count
drag
fillings
flavoured
freaking
heavenly
score
thirsty
unlimited
##ging
aroma
boiling
mountain
promo
stone
tells
diverse
entered
feet
miles
noisy
parts
pu
reward
stickers
updated
##ably
flour
grabbing
guabao
helps
proteins
##cing
##way
88
dude
fellow
flaky
highlight
lightbulb
private
ranging
streets
wood
branch
feedback
hawaii
logo
mills
ordinary
packaged
parfait
pics
proceeded
tendon
wondering
cleaned
ignored
maki
monkey
okinawa
sketchy
tso
##3
apologized
asians
beginning
designed
gf
greatest
mangoes
scratch
setup
shaka
switch
waiters
yam
##ki
assuming
colada
endless
ham
noon
poured
replaced
shocked
springs
##5
##king
##sing
boring
creaminess
de
eh
energy
entirely
frustrating
hearty
noise
pair
seoul
tray
##v
cat
coworker
edamame
ga
language
lie
los
mexican
palate
pleasure
pull
puree
unprofessional
##iest
##ls
##up
combined
dense
din
eggplant
instantly
joke
loving
manner
mojo
ps
root
wear
##ial
##il
##ns
##time
alcoholic
complaining
mid
named
poorly
practically
scoops
skytrain
stamps
swing
tends
thrown
tropical
wine
##dy
bags
considered
hire
indeed
member
occasion
plum
shape
tall
upgrade
wash
##bs
##land
advantage
chair
country
created
detail
indoor
jam
mushroom
napkins
ssam
stew
unpleasant
waitresses
wasted
##ian
##na
3pm
access
broke
chic
coworkers
deciding
domain
korea
loyal
lukewarm
mixes
parties
resist
row
xing
##rd
accidentally
compliment
creams
elotes
exterior
georgia
greater
gyoza
hawaiian
kill
lacks
lives
mark
minimalist
passing
result
throwing
tonkotsu
##ins
aiyu
alternatives
blossom
body
cashiers
concoction
deserts
eager
fingers
fung
gorgeous
held
layers
lids
opposed
taco
utensils
venture
wallet
##9
##cy
##ky
beard
becoming
blame
dad
exotic
francisco
google
mason
opens
ours
papa
present
ratings
sucker
thrilled
worried
60
bothered
children
comforting
crema
drizzled
fee
gummy
listen
memorable
payment
period
puffle
remind
roast
sent
spiciness
supermarket
surrounding
trend
##tive
appeared
assumed
bone
fail
nicest
video
winner
17
apartment
beats
granted
hill
informative
pina
shiny
surprising
##ct
##rt
alley
appears
described
power
skimp
smiling
sorts
stupid
vast
versions
##ca
##lly
##ma
8pm
addictive
americanized
bananas
bang
bank
bitterness
explore
idk
mate
newbury
parked
placing
pomegranate
se
syrupy
##ary
##les
7pm
apologize
basis
buttery
canned
chipotle
continued
deliciousness
distinct
edible
fare
final
gongcha
groupon
mojito
oyster
wtf
charging
cheesy
diet
failed
followed
grape
heads
hoped
hurt
mandarin
packaging
regulars
spinach
tbaar
thru
tie
tongue
##per
##to
bingsu
cappuccino
contact
customized
guilty
ma
mangos
platter
pops
ppl
replace
whoever
##house
beside
breading
cares
catching
degree
headed
le
respect
servings
steps
teado
understaffed
ac
christmas
expert
genuinely
gloves
hung
minor
necessarily
news
peaceful
provides
raised
reminiscent
unfriendly
unusual
##oo
##ver
angeles
bok
booths
choy
comparing
default
divine
earth
happening
kfc
milks
minh
neighbourhood
personable
risk
squishy
stepped
togo
tricky
yin
##zing
account
child
details
displayed
floating
jello
kidding
nuts
onezo
ugh
unfortunate
videos
whim
wont
calamari
connoisseur
dallas
feed
hassle
nom
oreos
randomly
rangoons
trek
volume
##bly
##ey
cherry
childhood
colored
consists
culture
flakes
godfather
gray
homey
laptops
puts
sf
smiles
snob
stays
teamo
venue
weekdays
##7
##ir
##op
2019
cereal
closes
creamier
freeze
gal
gra
guessing
hoisin
industry
lil
max
props
stellar
sucked
sundae
##ay
##de
##man
additionally
boot
burritos
chip
condiments
eater
expand
hyped
reach
thirst
tops
unsure
##line
##mp
3q
advance
allows
attached
concerned
depth
fills
freezer
guava
letting
naturally
opposite
refills
stingy
wok
wrote
##co
began
chopped
edit
international
kingsway
lets
manage
promise
sake
shell
site
theres
vinegar
##ance
##ton
act
amazed
appear
bench
chunky
computer
dang
everybody
ha
halfway
inedible
insane
mile
sampler
sashimi
spam
tomorrow
##ri
allergic
cambie
cantonese
deliciously
downstairs
funky
generic
gripe
ill
indecisive
lobster
london
shelf
shortly
southern
stools
trained
washington
yau
##ah
##min
accessible
appetite
blender
chewing
complained
exception
garbage
grainy
hers
khanh
memories
midnight
narrow
pao
ripe
saved
seal
tag
tossed
www
##py
amounts
blow
blowing
citrus
district
faces
forgotten
overwhelmingly
ownership
seared
spiced
subs
sweeten
tl
##as
##is
6pm
appetizing
authenticity
bold
bummed
claim
cleaner
computers
exchange
female
herself
id
initial
justify
kumquat
steam
##ded
2pm
addiction
ferrero
gold
longan
ninja
pace
pic
pool
rip
sandy
solely
sparkling
staffed
starving
steeped
tomunchi
##ating
##do
##hh
##med
11pm
ain
america
appearance
bars
beauty
blueberries
castle
charming
cities
dado
disappoints
genuine
hunt
information
kindly
sticking
til
timely
vegans
whereas
wild
##io
##ration
ability
benefit
dew
doughy
frappe
kudos
metal
minimalistic
mistakes
novelty
nowadays
nowhere
swear
toward
yuck
##ad
##ba
##ball
##be
##ea
adore
blew
booth
cuts
descriptions
dying
eatery
expectation
families
fukuya
hostess
noted
numbers
preparing
regarding
reliable
showing
shoyu
singapore
skewers
soooooo
speedy
##cha
3rd
attempt
cutest
dig
fond
garage
herbs
limit
pressed
purchases
raving
recall
sensitive
specify
##bble
beni
brighton
centre
chopsticks
desire
gourmet
greatly
icing
law
maple
pea
receiving
restrooms
sakura
separately
weight
##la
##my
##side
aromatic
assorted
becomes
blah
chia
convinced
ensure
exceeded
gooey
insta
italian
mmm
octopus
ounce
peppermint
safety
settle
slimy
socal
string
sweetest
tone
understanding
versus
vietnam
##by
##izing
al
caffeinated
calming
caramelized
creations
draw
earn
encountered
impatient
plethora
removed
ride
significantly
supporting
vibrant
##que
accurate
address
bagels
busier
crappy
cupcakes
delectable
downhill
flag
focused
grow
holding
ignore
kee
mao
meatballs
patience
refresher
replied
rudely
tastebuds
##che
##ong
##town
16oz
apology
appropriate
atm
combine
crush
earthy
floors
grill
guan
holiday
homework
lactaid
soothing
soul
spilled
steal
terribly
tvs
##ming
##ons
##uan
101
accident
advertise
amongst
bliss
challenge
cheapest
chewier
craze
discover
effect
ends
foodie
glazed
grubhub
intrigued
isnt
knowledge
lineup
locally
marshmallow
moves
mug
overpowered
package
password
purpose
ruined
saving
scale
soap
stops
surely
ticket
unacceptable
##sed
carts
connect
crowds
crust
knock
madness
million
pictured
silky
specialize
t4
tempted
tries
uno
van
vary
##chi
22
aberdeen
acknowledge
albeit
appeal
cats
club
cucumbers
daikon
dorchester
elote
finger
fortunately
gladly
heavily
holds
http
necessary
oddly
pit
politely
pride
profile
renovated
rocks
seed
shut
sofa
sooner
strips
underneath
ups
varied
wraps
##ao
##ase
##ip
11am
blood
chalky
chunk
county
crumbs
definite
fanatic
flow
fool
grown
intense
occupied
overload
prow
publix
reservation
rooibos
salon
sight
sleek
spaghetti
tummy
variations
##ff
##gy
##ha
##ify
##ved
adequate
bear
books
brewing
conclusion
crafted
feature
forest
hmart
lackluster
mural
patiently
printed
providing
ranch
send
terrific
throat
unexpected
weston
##back
##ments
angry
cater
consisted
contained
doesnt
fortune
male
memory
metrotown
pulp
recipes
signage
spare
thoughts
toronto
unbelievable
##bed
##berry
##bi
##ds
##sy
##ual
##ville
adjusted
agar
age
answering
apps
bed
cars
cheerful
chilled
competitive
cow
diabetes
dislike
em
flowers
former
frankly
individually
microwave
newer
scared
sigh
smart
teenagers
teeth
towed
tripe
trips
veg
##ak
##ms
##rate
##un
##ze
5pm
accepted
acknowledged
anime
balcony
buffet
contain
crack
demand
er
erh
fishy
freshest
hood
karaoke
kf
knocked
led
limoo
lined
load
mala
mass
meatball
men
mongolian
occasional
officially
operation
pig
scrumptious
spoons
tbh
traveling
village
xl
##aw
##ft
##ld
##om
##ves
abide
additions
aloha
aspect
boo
boss
cajun
charges
chrysanthemum
decadent
esp
host
increase
labeled
latter
lee
locals
nuong
passionate
radish
responded
reviewer
scallions
selected
shout
success
suspect
taipei
unagi
wheat
##fully
00pm
budget
collection
disney
division
dragonfruit
falling
fog
freezing
grease
hospitality
insanely
jaho
lively
misleading
neon
newest
pesto
prime
produce
remade
specializes
switched
tree
ultimately
##ler
##li
avid
beach
bored
boulder
bouncy
chances
chops
continues
contrast
croissants
cutting
dk
drunken
elegant
expanded
filipino
iron
message
overrated
parfaits
pear
pebbles
purely
redeem
saltiness
tastier
teens
tiki
##ade
##ding
##ible
##ua
##ug
4pm
carefully
clue
compete
complicated
crew
da
enthusiastic
fly
forth
himself
incorrect
intended
lean
mt
mustache
premade
quarter
related
replacement
sleeping
soupy
summary
thaison
wet
wing
yang
zone
##ence
##ened
##lt
anna
automatically
barley
bottomless
buckhead
code
companion
conscious
cronuts
delighted
dined
fenway
grade
innovative
kpop
limered
mashed
mildly
nevertheless
nw
oak
preferences
required
rubbery
sits
slower
steaming
tarts
themed
trick
unable
university
vegetarians
waitstaff
wonderfully
xian
##lve
##ny
##tic
##tor
##using
adults
attractive
berries
charm
compares
devoured
edge
evenings
feng
gas
matters
norm
pinkberry
practice
proximity
research
ubereats
waters
yea
yelled
yelper
##ess
##ically
##ities
##tes
##wood
1pm
allergies
bare
burn
comments
concern
connected
contains
coquitlam
explanation
friendliness
gosh
hated
lame
magic
magical
obsession
panna
preparation
quarantine
saffron
shift
siu
spa
storefront
teahaus
term
tomatoes
unassuming
verdict
wrapper
##cks
##da
##down
allergy
blast
built
chicago
chit
cube
deli
destination
dropping
encourage
features
fork
fresher
guest
ie
inconvenient
kha
kitty
latest
marked
phones
pile
plant
raved
remove
reservations
skills
surrey
wave
##ow
##port
##tte
advise
airport
almonds
approach
arrival
boys
buhi
constant
creating
cutlet
decatur
drawn
equivalent
extraordinary
hibiscus
impress
increased
intimate
paradise
report
rough
skimpy
struggle
tonkatsu
understood
##ery
##istic
##ley
ages
angel
asks
avocados
basement
bones
cane
ceylon
cheeto
coating
complimented
cooks
delivers
dozens
enormous
falls
hesitate
judging
ketchup
masala
melting
mouse
precautions
prep
rain
shelves
sky
thoughtful
timing
toilet
##ang
##ered
##ko
##ung
biased
coated
cocos
confirm
cooler
creation
dente
doughnut
leg
markets
rolling
superior
surrounded
turkey
##ibility
##no
##pe
##rating
advertising
arcade
argue
assam
chalk
choco
compliments
confirmed
cross
dedicated
frills
handled
land
mamasan
noticeable
nutty
painted
potstickers
presence
primarily
prominent
recommending
reduce
roughly
shown
somebody
successful
tots
ur
washroom
##ard
##dge
##ked
##ries
##rn
##uring
##va
admittedly
chilly
consume
cotta
defiantly
desk
faves
fleecy
fooled
grateful
gritty
hills
holder
indian
kale
library
mugs
nose
owns
percentage
reduced
reviewed
tatsuya
thinly
transaction
uh
ventured
warn
wasting
yelling
##ake
##go
##ical
##ite
##mins
##nder
2018
arriving
asada
awkwardly
barrier
claimed
classics
dates
direction
execution
fits
galaxy
grandma
granville
incident
insisted
john
june
meets
mission
nostalgic
pb
quicker
randolph
reference
requests
scones
spit
spotted
stared
timers
tin
track
##bo
##ger
##ise
##mont
##ral
adult
af
artwork
battered
biet
broths
calls
disclaimer
discounts
earned
email
featured
forced
habit
hillsboro
hop
hundreds
imitation
industrial
jackfruit
mill
mo
oriental
penny
rad
rocher
shaken
sticker
sturdy
styrofoam
tenders
twenty
upscale
warmer
wherever
yup
##cal
##ched
##gs
##ified
##ncy
adjustments
alpine
altogether
beforehand
breaks
buzz
candies
carne
classy
contemporary
conversations
crossing
excitement
existent
favourites
flight
friendliest
greeting
heated
improvements
jenjudan
killer
og
osmanthus
pouring
renovations
rent
screens
sorta
sprinkled
stare
staring
stretch
substitutes
supposedly
tartness
thankful
toys
##ab
##mi
##ok
##tain
##tle
##wn
biscuit
biz
crying
curries
dac
dance
deck
died
dilute
disorganized
download
enjoys
guarantee
handling
interest
jade
jinya
july
mainland
malt
mellow
mentioning
operated
popularity
prob
recognize
satisfies
silly
slaw
songs
upbeat
##ka
##mo
##ud
##une
assured
ba
bird
bottled
brain
cheers
clientele
countless
dash
driven
efficiently
exceptionally
flies
nervous
nugget
panang
pasta
patron
promising
revisit
sanitizer
speaks
squeeze
supply
turning
ultimate
wheel
##aki
##aking
##ily
##pot
##q
##uate
2017
accompanied
animal
apples
badly
bon
bop
brightly
bucket
bursting
canadian
chao
chilling
collect
concoctions
driver
eclectic
facing
faux
fever
herb
hubs
inch
layered
leftover
locked
mis
mist
personality
poisoning
repeated
reuse
rules
shorter
shots
sink
soak
specially
spill
sui
swirl
tasteful
toasts
tourist
un
varies
##cle
##ford
##im
##j
##ks
##nic
##pa
##res
55
82nd
acai
accustomed
adventure
alas
americano
breast
bu
buddha
ceiling
competitor
coupons
dare
expansive
highest
interaction
loudly
muffin
native
peppery
pet
proud
reaction
roommate
shirt
smoke
sparse
suddenly
sundays
tamarind
tldr
um
wowed
##ap
##ations
##ight
##lin
##nces
##ried
##rts
##ually
##ular
##unt
##use
bistro
bye
chaotic
chubby
dear
doughnuts
eight
existed
expanding
fight
gravy
gym
inconvenience
infusion
kim
kiosk
knife
meetings
ponce
processed
quirky
rang
rid
ring
roadhouse
seasons
severely
skinnidip
sponge
strangely
sufficient
teppanyaki
text
thit
valley
western
##ingly
##ions
##ner
##ol
ah
anybody
basket
benches
bump
chemical
chen
confusion
curd
diner
drinkers
elements
exists
exit
false
fashion
hawthorne
hitting
instagrammable
instructions
involved
joe
longest
lunchtime
microwaved
navigate
needing
nut
pissed
posting
pow
prevent
reached
refilled
satisfaction
sauteed
scent
screw
shady
significant
soho
souffle
sprinkles
substantial
tow
uji
vi
wasabi
##cs
##lated
##ntly
##ric
##ties
##tly
4th
apologetic
approached
basics
breaded
character
chefs
chi
chive
cocktail
drawback
dreams
drenched
drinkable
enthusiast
frequenting
frustrated
fulfill
hallway
hat
hints
https
ikea
invited
listening
ne
passable
plays
robust
rotation
sanitary
shaking
sipped
squeezed
thigh
timer
toss
visually
yakisoba
##cious
##ening
##gle
##ism
##ture
85
beijing
braganza
bubbly
cardamom
colder
consumed
corporate
curly
dangerous
diners
doordash
dunkin
eaters
el
error
exist
fails
frequented
frosting
glance
heavier
info
island
kimchee
nata
pairing
palette
plans
push
questionable
roomy
rounded
runny
sampling
secondly
seven
shall
shares
slammed
stinky
stoked
stylish
subway
suitable
survive
sweat
triple
unhappy
variation
watering
wipe
wondered
##ep
##ght
##hhh
##ics
##inated
##ses
49
abundance
bases
breath
bustling
cantaloupe
chilli
communication
complement
daughters
decaf
differently
downfall
dumped
executed
fear
fl
grace
handing
hectic
hefty
hojicha
imported
join
karma
laksa
learning
maintained
mon
murals
oven
peace
quench
ripped
ruin
searched
separated
shoots
sliders
substance
thinks
torn
truth
unbelievably
unfamiliar
updating
urban
voice
##em
##ga
##iss
##lle
##lved
##mark
##shed
alongside
arlington
bbtea
burned
cent
charcoal
chatted
cheery
circle
construction
countries
craft
drum
exploring
favs
feelings
happiness
human
ipad
knowledgable
krab
lead
mama
march
mmmm
mock
overhyped
pekoe
pinch
planet
rushing
sales
shaker
skewer
tieguanyin
washed
wrapping
##ber
##minated
##ster
##used
21
abundant
allowing
anyhow
arrives
bell
brim
buddy
carried
category
commented
contacted
costumer
dope
equal
fragrance
garnish
genius
glaze
grumpy
ho
kit
lab
laughing
limeade
loss
mac
marshmallows
mcdonald
northern
ocha
philly
puddings
quieter
reality
renovation
respectful
savoury
scary
shabu
smallest
tastiest
tong
trays
trucks
visible
visitors
wedding
##cies
##ell
##els
##ham
##hy
##ide
##mps
##nn
##ot
##rse
##sted
##tch
##ters
##yed
2016
baguettes
cafeteria
consuming
deerioca
delightfully
dipped
disgusted
emperor
esque
fourth
gua
hella
highlights
lava
macha
mai
maintain
mueller
oranges
percent
poster
posts
purchasing
require
rule
seatings
seemingly
shine
shore
simplicity
slurp
smelling
speciality
specialties
stepping
stiff
stocked
tidy
underwhelmed
volcano
##let
##of
##out
##rio
##vation
##zy
10th
23
3x
adjacent
april
avacado
bake
bulk
cancel
comfortably
dc
direct
forgetting
havent
hmmm
indulge
largest
lining
marketing
meaty
moments
muffins
mush
nancy
pairs
piled
planned
pronounced
rd
remains
reply
reviewing
scoutmob
shirts
snag
staples
steady
styles
substituted
teen
tipped
tomyum
truffle
warmed
whom
##ach
##ai
##city
##ick
##ini
##mit
##nding
##rds
##vo
##ying
ache
acted
advised
asap
battle
bizarre
born
burst
cared
cases
cell
checks
coke
cousins
definately
designs
dissatisfied
dressed
dust
ear
flying
fulfilled
goong
grain
hankering
happier
horrendous
leading
liquor
maker
marble
milkshakes
ness
river
smoked
snap
solo
technically
tradition
treasure
ugly
##away
##cked
##mic
##oz
##ray
##su
##uff
##uge
##und
##ute
##ys
acquired
august
blastea
bunny
char
clever
complemented
cough
culinary
cuon
desperate
ease
filthy
freakin
gracious
incorrectly
laugh
picks
pitcher
quest
route
rustic
schedule
skinny
spilling
spotless
stating
strictly
suit
thailand
toddler
tokyo
upside
wayyy
whose
##bing
##ced
##cking
##rated
##rily
##rk
##ron
##uted
##utes
28
accordingly
bingsoo
breeze
broadway
brookline
burning
calorie
carb
catered
cedar
creativity
dietary
dump
entertainment
errands
extras
faint
fed
gathering
gram
guadalupe
headache
hmm
holes
holidays
hummus
individuals
label
lac
legs
lesson
movies
mustard
nail
neutral
niece
opinions
plugs
pregnant
proportions
ranges
regards
reign
repeatedly
reputation
reserved
retail
shu
sleep
smoky
someday
straightforward
strength
stuffing
succeed
##30
##cted
##ique
##ively
##nted
##one
##pers
##rung
##ught
##ulated
##vating
##ye
bears
beloved
biting
blackball
bobo
bound
capacity
clock
concentrate
concentrated
costco
counters
cupcake
frying
gigantic
groceries
hahaha
humble
ices
imagined
immediate
kerrisdale
kolaches
lattea
lying
napa
nature
peas
posters
pound
reccomend
refreshment
richness
scone
slushee
smoothly
spicier
spin
splurge
stirred
teamoji
tempting
thinner
walks
xft
yours
##ace
##bus
##come
##ew
##ix
##ject
##nts
##pped
##tail
##tructed
approximately
bike
bleh
bueno
carrying
chosen
cocktails
concerns
condense
cutesy
designated
detailed
dirt
dtf
ecstatic
energetic
explains
explosion
factory
father
flan
franchises
galore
gifts
harsh
hometown
hu
humid
infamous
inform
inquired
kicked
magazines
moderate
munch
ohio
ol
partially
perk
pushed
queue
reflect
shumai
sizzling
source
toffee
triangle
unnecessary
unorganized
urge
waits
walnut
wary
##ana
##fer
##icle
##ied
##ku
##so
##son
##uck
##unk
27
2x
65
alert
animals
anticipated
apparent
artist
bexley
brews
buffalo
carries
chalkboard
claims
clients
crusty
cultural
dingy
disposable
dripping
edges
england
extended
flank
gum
hall
intimidating
losing
lowest
measure
mien
model
nigiri
oriented
overlook
oysters
perimeter
playlist
promotions
raspberries
remain
remembers
sencha
session
shabby
shock
shrimps
slide
spirit
starters
stream
sucking
swallow
tampa
tapiocas
teenage
tkk
touches
umami
vegas
vicinity
visitor
wandered
warmly
winning
workout
worries
##balls
##bby
##day
##end
##ens
##ient
##mies
##nate
##ni
##nsion
##od
##rous
##sa
##sion
##top
##work
angus
au
bambuza
barbie
brilliant
bubbleology
chashu
colour
conference
creates
creepy
davis
declined
displays
duh
dumb
ears
efficiency
emphasis
ending
essence
ex
excessive
extreme
foamy
frothy
fucking
grub
hired
improving
inconsistency
instance
jack
january
laughed
mary
matches
mmmmm
mores
outrageous
parmer
pocket
portioned
pretentious
pun
redeeming
remotely
restrictions
rotating
screaming
sheet
shortcake
silverware
smashed
thanksgiving
traveled
unhealthy
valentine
yumm
##fair
##fresh
##ji
##light
##lish
##lled
##mm
##oe
##ome
##ory
##ran
##ris
##ury
##vy
150
2015
ahi
anderson
baozi
boa
bts
butt
caused
clerk
convince
crammed
crawfish
dancing
december
deluxe
desperately
determined
differences
disaster
distracted
dive
diy
dreaming
eateries
environmentally
experiment
fewer
flame
flaming
force
goal
guaranteed
hoa
honor
introduce
jerk
jumped
leads
mobile
modify
moo
nailed
neighboring
nine
okonomiyaki
ounces
outlet
overflowing
paint
print
priority
remained
rings
smoking
southeast
sprinkle
stress
sunset
thana
touched
utterly
visual
wa
wouldnt
xo
yep
yu
##ased
##ette
##iable
##ice
##milk
##rity
##tation
##tely
##ti
##ulate
##we
accessories
ad
adjusting
afternoons
aged
americans
ap
avoided
avoiding
blows
boost
buttercream
buyer
clay
conditioning
considerate
copy
death
diabetic
drip
eggrolls
encounter
exquisite
farther
featuring
gimmick
handcrafted
hub
impeccable
indicated
killed
kindness
lamar
lemonades
locate
master
moderately
ms
pacific
palm
penang
pies
record
refer
refuse
rib
satisfactory
saturated
sh
shitty
shy
sidewalk
siracha
situated
skins
skipped
socialize
sofas
staircase
stressed
target
tech
upgraded
usa
wind
worthwhile
##ain
##ants
##cate
##cent
##coming
##don
##iting
##iu
##ney
##off
##oon
##over
##rian
##sive
##ten
##tt
##uous
##wed
##ya
29
86
accepts
ai
appropriately
attempted
atx
bibimbop
bills
blenders
branding
brownie
bruce
caps
carbs
cashew
chick
coloring
corrected
couldnt
couples
creek
decade
department
digress
dose
eco
expired
february
festival
finest
firstly
fuss
honeycomb
hotter
inner
jump
kimbap
linger
listened
map
nachos
nadia
official
originated
outer
overpower
paintings
peking
plug
proportion
pulling
rap
realizing
refunded
rotate
rotten
sans
scattered
sisters
smoother
solution
song
starchy
status
steer
stuffy
sudden
superstore
theater
thickness
townshends
upsetting
yelped
yoforia
##ache
##ddle
##ines
##its
##kes
##lished
##ors
##tious
##yyy
##zard
2020
26
arugula
backed
blasting
challenging
checkout
cheesecakes
chocolates
classes
commercial
completed
consideration
deter
drops
embarrassed
emory
entertaining
events
fancier
firmer
flagship
flowery
foodies
handy
hilarious
mangonadas
method
mistaken
mozzarella
newton
nitrogen
packing
packs
partial
perfume
poppers
preserved
pressure
raise
recognized
relative
scallops
scan
schoolers
shareable
skim
sorbet
strike
sunshine
tualatin
tx
walmart
warming
washing
weirdly
whiskey
wrappers
xeo
yikes
##af
##als
##ces
##cise
##due
##he
##inable
##inal
##ining
##ire
##ken
##kill
##lation
##law
##ntial
##ress
##tory
##uper
##vere
##ware
##zable
##zed
20mins
accommodated
action
attitudes
avenue
award
belt
booted
borderline
bulbs
caution
clackamas
clueless
conducive
costed
covering
covers
customizing
delicately
diced
diff
disappeared
downsides
duo
eggy
enjoyment
entertained
enticing
flip
floats
friendlier
gain
generously
graham
guide
hearts
hopeful
impressions
inefficient
loads
matchata
medicine
naked
nostalgia
obnoxious
pickles
pillows
promised
psu
regretted
repeating
richer
sheer
sooooooo
sorely
splitting
standout
stations
sterile
stumptown
teapots
tipping
unimpressed
wandering
weeknight
weigh
wishing
yen
yogurts
##bean
##ction
##dle
##fied
##gard
##heard
##ished
##ited
##lessly
##lf
##licious
##lies
##race
##rch
##rine
##si
##tering
##urb
##uts
##vice
05
98
affect
anise
behavior
bin
bothering
bubba
buzzer
causing
characters
chase
chirashi
churro
clothes
coat
criticism
cry
cumin
cuong
delay
directed
escape
fired
fixing
flavorings
forgive
gelatinous
guessed
hates
hunger
iffy
irritated
kiddos
lakeway
loaf
lunches
managers
marks
mau
miami
military
neighbor
overdone
overheard
panini
peeps
persian
physically
plump
pointing
population
press
reg
relationship
respond
seeking
shank
simplistic
slurping
subtly
sundaes
surface
tieu
towel
towing
traditionally
treatment
trees
trio
##ada
##ash
##ature
##eee
##era
##form
##gh
##heat
##ig
##ined
##ings
##ink
##ison
##lo
##mitted
##old
##ooo
##pect
##rant
##ree
##rm
##tively
##tling
##ura
##ural
##ured
##urt
##ution
##yaki
##yy
##zzled
accompany
aforementioned
artsy
atleast
barbecue
bat
beet
blonde
brave
breaking
brief
candle
clams
compensate
core
corners
crossed
darker
deceiving
discovering
dole
dot
established
european
fermented
finely
fixings
gai
granola
hehe
hospitable
hr
intersection
jazz
kicking
mega
mystery
napkin
overnight
perspective
piggy
potter
praise
readily
remaining
results
serene
sincerely
steeping
stirring
stories
struggled
stunning
teapot
warmth
##ability
##ara
##ars
##bc
##cial
##eeee
##ented
##ffe
##front
##ided
##ker
##lating
##lic
##place
##rried
##shing
##tions
##ttle
##ub
##ude
##ule
##ush
##uting
##vable
##well
45pm
89
afford
alon
alter
arguing
artificially
backdrop
bartender
benefits
bi
blending
blvd
bookmarked
broad
buddies
bug
caring
celery
chiffon
cleared
colleague
condescending
contents
coolest
dealing
discounted
distinctive
distinguish
drew
drool
enoki
entry
exaggerating
exposed
favors
fiancee
fifteen
fluke
fulfilling
gaming
hide
huh
interact
intriguing
introducing
justice
kawaii
krave
lounging
mango8
meter
nails
nestled
northeastern
novel
optional
postmates
potentially
professionalism
quote
rack
remodel
rivals
saucy
scheme
selecting
september
smh
smiled
snomo
softness
sounding
spendy
substitutions
tank
touching
townsend
trinkets
unappetizing
unbeatable
underrated
undrinkable
upcharge
upper
vodka
vouch
wayyyy
witnessed
##aaay
##ac
##ative
##bie
##board
##can
##den
##duction
##ettes
##hed
##late
##lity
##lted
##mate
##phone
##point
##porated
##ram
##rew
##ria
##rified
##rive
##sm
##ssion
##ul
advertisement
apothecary
aspects
beignets
blank
boards
boat
bobablastic
brands
bro
bugs
catering
cauliflower
celebrate
chaos
chemicals
church
commute
cooled
coz
detox
directions
discovery
drunk
duty
eggroll
epic
fallen
fighting
fitting
frustration
gimmicky
girlfriends
headphones
hook
joined
jose
kevin
kimbop
lay
luv
massachusetts
monarch
mondays
newbie
nonsense
omelette
oops
operating
organization
pages
periods
pokemon
potent
princess
pumped
regrets
relief
remodeled
resembles
residential
routine
ruins
scam
shook
similarly
slushees
sourness
sports
stacked
stall
steel
stewed
supplies
sweeteners
sweethut
textured
trailer
uncooked
validate
westminster
wins
xlbs
yell
yolk
##aged
##aked
##cling
##die
##died
##ents
##ese
##ift
##ional
##ising
##itos
##mination
##net
##oned
##ony
##some
##stic
##vant
##vate
##vention
##ww
30min
39
anniversary
atrocious
ban
ben
boil
browsing
cam
cans
cider
cleanest
clumpy
complementary
concerning
condiment
consisting
converted
costing
counts
cracker
crispier
critical
crown
curiosity
dimsum
ed
element
engaging
existence
flavourless
fountain
freak
goto
gourd
greentea
harry
imho
indicate
indoors
influenced
jjigae
keen
leek
lips
magazine
mcdonalds
meantime
mm
moreover
nest
nightmare
oasis
outdated
pants
peel
powerful
pretend
prove
purposes
quicklys
quietly
raining
resort
roof
rubber
screwed
sections
sensation
sharp
shavings
sincere
slider
socializing
sodas
sq
starch
tacky
tourists
turnover
universal
vendor
wider
wore
worn
##aks
##card
##ean
##gging
##her
##hi
##hip
##hop
##ians
##icles
##idence
##iled
##inating
##jected
##kin
##lie
##lves
##non
##rap
##val
##vs
##wise
31
5th
alike
alive
associate
attended
beads
blocked
bourbon
cardboard
caters
clarify
closely
coma
communal
component
confident
critique
david
debating
disrespectful
edition
en
evenly
experiencing
fighter
figuring
film
flavouring
forgettable
gesture
greets
gsu
guidelines
history
horribly
ideas
inexperienced
journey
junk
kwa
landed
lock
luke
miserable
multi
musubi
notable
october
overbearing
painting
pasteur
path
payed
photogenic
pine
platters
positives
powered
precious
prefers
raves
receipts
refined
scare
science
scooped
scrambled
shines
shoot
sis
sozo
struck
stumble
succulent
sunflower
sunrise
tail
tear
teeny
tentacles
theyre
tolerance
tower
turmeric
unsatisfied
virtually
wireless
xiaolongbao
yoshi
##aled
##bar
##enny
##erry
##etic
##ex
##fish
##going
##gon
##ita
##nda
##nies
##nk
##ound
##rehensive
##rie
##rove
##rry
##san
##sity
##ston
##tal
##ther
##tract
##tro
##ugs
##ui
##usive
##verse
##vision
##vity
##wa
##ward
##za
##zz
10am
135
2014
32
absurd
active
attracted
attraction
bargain
batches
beers
behold
boardgames
boneless
bonsai
boozy
browse
byob
cad
cal
carbonated
citron
counting
craved
crumble
curbside
decors
docked
eastern
electronic
fb
flexible
foil
gio
glorious
gods
guilt
gwinnett
hipsters
hiring
holders
honesty
image
impact
indication
indifferent
intend
killing
kimcheese
lane
louder
luc
meanwhile
medley
metered
minded
nah
nearest
nonexistent
overs
practices
proved
pushing
rabbit
refrigerator
reluctant
rum
saves
seller
shoes
stack
starter
stray
stuffs
sua
succulents
suited
supper
tablet
tapas
tealips
teavana
thaiger
umm
underground
uniqueness
unreasonable
varying
wei
wound
yummm
##are
##atic
##ato
##bt
##cated
##cure
##ducing
##ets
##eve
##formed
##gi
##hoke
##iar
##icious
##illa
##ination
##inh
##inished
##low
##mer
##mixed
##mmm
##pin
##plies
##pping
##pt
##ption
##rized
##rror
##stars
##ult
##ures
##vana
##ventional
##vered
##volving
##wl
##works
15pm
20oz
afterward
assure
bam
biggie
blind
bloated
cayenne
chamblee
comebuy
communicate
companions
complements
cracked
dated
decisions
decorative
descent
developed
devices
dispenser
dynamite
eastside
elevated
ethnic
exclusively
exploding
facility
flair
flimsy
foremost
gems
grasshopper
gt
guard
hesitation
hollow
hustle
ii
immaculate
indulging
java
kissimmee
length
lied
link
lists
mam
mapo
marietta
masago
messing
mike
misses
negatives
nephew
nori
odor
overcharged
peachtree
petals
physical
po
proceed
quantities
radio
rear
reheated
resident
responsible
romantic
saint
scallop
scarce
sloppy
snapchat
sophisticated
spaced
spoken
steve
su
tarocado
toasty
tolerable
twister
unimpressive
utepia
web
wicked
zang
##10
##aneously
##ass
##ast
##astic
##bb
##cc
##ching
##cky
##forms
##gic
##ica
##iment
##ishing
##ital
##ju
##laring
##lass
##lla
##mble
##ones
##rgin
##rish
##rize
##table
##tably
##test
##thing
##tin
##uch
##ust
##yer
2013
30am
500
accents
accepting
accompanying
aggressive
ashamed
attempts
attract
beaten
bounce
breaker
categories
catfish
chamomile
cheat
colleagues
counted
creamers
definition
dies
digging
dinners
disliked
dull
dunno
es
eve
eyeing
feast
forms
frap
fritter
furthermore
gelatin
generation
ginseng
glowing
goi
graffiti
halloween
identical
inclined
intake
intention
invest
invite
las
lengthy
lookout
lord
mayonnaise
michi
mochis
moms
monthly
mornings
nitro
northwest
noticeably
noting
petite
pim
potted
radius
redo
refrigerated
reserve
respectively
sen
shortage
silence
smiley
someplace
spell
spoonful
stored
stove
stroll
studied
surprises
sw
tears
tee
tub
ultra
uniquely
unreal
weary
ying
##ag
##aging
##aid
##ame
##bility
##cap
##cca
##charge
##chat
##ciest
##ders
##encies
##even
##eye
##fy
##fying
##gling
##hold
##ill
##ington
##ised
##ives
##lam
##lant
##lied
##lls
##lob
##mbling
##mped
##nal
##nut
##ored
##po
##rid
##sin
##tant
##tate
##uation
##ux
##via
##view
##worthy
##xy
##zuki
##zzle
10min
183
20min
adjustment
ajitama
amaze
arboretum
arguably
arrangement
assembly
awesomeness
baking
bitch
brighter
caveat
ceilings
charred
cleaver
clump
clumped
clumps
colourful
complexity
consist
consumer
continuously
coughing
customizations
dime
evident
factors
frank
fruitealicious
gallon
garnishes
glutinous
gps
hiding
hundred
inferior
inhaled
inventory
jealous
ka
kat
labor
legitimate
liege
locker
lousy
magnificent
meadows
mei
michael
mode
nextdoor
olive
painful
pains
pale
parmesan
petit
pint
pockets
progress
punches
pungent
radar
requesting
rounds
rudeness
sleepy
slippery
snotea
snows
sourdough
spectrum
stage
stairwell
stressful
strikes
styled
substitution
suburbs
suffice
suggesting
swung
symphony
taxes
tealosophy
ti
tmix
tour
trang
tri
ummm
unexpectedly
valid
walnuts
workplace
youtube
yuan
zucchini
##ained
##cous
##das
##date
##dder
##ddy
##erate
##fe
##gie
##ile
##ito
##ium
##lasses
##mai
##nds
##nel
##nks
##nse
##oli
##ore
##plied
##rable
##rus
##serving
##tra
##uct
##ulations
##vard
10x
200
720
accent
adjustable
anthony
appreciation
approved
arm
atop
attend
blackberry
busiest
buttered
cancelled
cave
changer
chickens
choux
confidently
contrary
courtesy
crispness
cuisines
daunting
decorating
denied
differentiate
dinning
dissolved
distracting
donburi
downright
dragged
drain
drama
drown
drowned
elaborate
existing
filet
fillet
foggy
formula
garnished
gate
genmaicha
gentlemen
ghetto
ginormous
girly
goat
goodbye
grayson
grounds
hangouts
harden
hash
hike
hurts
instagramable
interiors
jian
jp
karaage
kho
leche
lesser
lingering
loop
ly
manageable
manners
maps
marc
marinade
merchandise
messages
minty
mouthful
noticing
notified
november
numbing
orleans
osu
outta
packets
pee
perfected
plush
privacy
qualities
quarters
que
refreshingly
region
remembering
rieu
rosehip
savor
seek
shanghainese
sheets
shiba
shiitake
shoulder
signed
silent
snowy
soba
socks
speakers
spills
splash
stole
sublime
sugarcane
teach
terminus
testing
texting
tied
tightly
updates
user
venturing
wake
whats
worlds
wth
yumminess
yuzu
##aches
##ado
##afe
##arily
##athetic
##cer
##creasing
##cycle
##eez
##ek
##ense
##fuse
##gers
##hou
##iam
##iate
##ification
##ina
##ition
##ization
##leased
##lery
##load
##mas
##matched
##men
##mus
##nes
##nivore
##ock
##oked
##ole
##pie
##rapped
##rette
##rg
##rical
##rice
##rr
##rupt
##ship
##sley
##star
##teen
##thered
##tribute
##tude
##uire
##uoc
##uss
##veyor
##zel
12pm
1l
appalled
appointment
argued
attendant
aunt
automatic
babies
band
bday
binh
bless
branches
bridge
bulgolgi
camp
cautious
chasu
cheddar
chocolatey
combines
connection
consumption
cooling
crumbly
cure
deff
deserved
desires
devil
difficulty
drastically
dumping
efforts
eggstatic
faced
fad
fairy
fashioned
foreign
format
fraser
fuji
gooood
hardened
hardworking
heaping
highland
homeless
hospital
idiot
inventive
koreans
lemony
limes
lu
masked
materials
mouths
niche
nintendo
oatmeal
op
parallel
peaches
personalize
pmt
pounds
powering
preface
presotea
referred
rely
rooms
sa
saltier
sando
sanitation
sate
saturdays
scream
sickly
sole
spanish
statement
strolling
suffer
sugars
task
taught
th
thanked
title
tornado
trade
treating
triangles
typing
useful
utea
validated
viiza
wiping
youre
##30pm
##aky
##ather
##au
##bachi
##bling
##box
##cents
##cino
##cluded
##clusive
##cript
##dies
##ently
##eria
##gan
##gment
##irs
##ishes
##itable
##list
##long
##lop
##losure
##mb
##mine
##nee
##nting
##oking
##our
##pi
##pies
##raction
##ridge
##rit
##rville
##seasoned
##set
##sk
##sty
##tery
##tivity
##tone
##tree
##ucks
##urred
##urry
##urs
##vers
##yard
##zzy
33
42
alma
answers
antonio
anxious
apologies
apply
arent
arrangements
arts
attempting
availability
balances
beefy
boasts
bobii
borrow
carmel
cartoon
containing
continuing
curated
dalgona
decreased
depend
diego
dishonest
dolphins
dress
dt
emails
equipment
excuses
farm
folk
foo
formed
fortunate
frame
germ
goood
grandmother
hainanese
hamburger
hats
height
hopping
horrid
hulk
inattentive
inches
interacted
material
mussels
nam
namesake
neatly
neck
operations
overlooked
overlooking
painfully
pastel
pathetic
payments
petal
philippines
prawns
puppy
quail
ramens
remarkable
requires
respectable
ringing
ritual
rocky
safely
sellers
siblings
smack
spongy
stool
storm
stormy
struggling
surroundings
tajin
talks
tater
theory
thousand
tremendous
unbearable
uncommon
venues
void
##00
##11
##ague
##ates
##aws
##ceptive
##ches
##ckle
##datory
##dled
##dom
##ei
##elds
##eo
##ges
##gly
##iated
##icating
##iling
##ipe
##istant
##itan
##itating
##ival
##jects
##kki
##logy
##love
##mes
##ointed
##ove
##ph
##phobic
##rain
##rough
##tered
##ttes
##tto
##uccino
##uttered
##uy
##water
##yce
1am
2012
24oz
aficionado
ali
artistic
bethany
bs
bumped
bumping
cactus
caucasian
charts
crispiness
dealt
delivering
demanded
dollop
drawers
drawing
eg
elite
encouraged
enthusiasm
excess
extent
ez
fifty
fig
follows
frappes
fri
gap
gather
gristle
hotpots
hygiene
iceberg
immensely
intimidated
itp
justified
kirin
kolache
letdown
lineups
lomein
lychees
manga
mash
masterpiece
merely
mille
opportunities
outing
ovaltine
overhead
pallet
patties
peeve
permanent
peruse
ph
piglet
prettiest
proceeds
rank
reducing
reluctantly
riata
ryan
salem
sam
sand
sandwhich
sassy
shapes
shrugged
sourced
spareribs
specialized
stomachs
structure
sweetheart
swimming
tickets
tranquil
transparent
understatement
unknown
unwind
upfront
views
vn
voucher
weakness
wears
whopping
woohoo
##20
##aka
##ane
##ared
##aring
##ats
##bourne
##burger
##cd
##chy
##clear
##cream
##ctional
##cup
##dae
##dia
##eb
##eon
##ere
##fect
##grain
##hing
##iant
##iating
##iative
##ibly
##ico
##iety
##ilities
##illion
##iments
##interested
##ior
##ipate
##isan
##jang
##kong
##lice
##lick
##lling
##log
##made
##marks
##moon
##nders
##oooo
##ops
##paper
##pense
##position
##ractical
##rad
##rading
##rates
##rence
##rived
##roll
##sss
##sting
##thful
##times
##ucated
##uce
##udo
##ued
##urant
##vert
##vities
##vour
##yo
##yu
##zon
1000
12oz
30mins
90s
a1
affogato
amy
angels
artists
assist
assistance
attest
backup
believed
bias
burg
chais
chamango
cigar
cloyingly
compostable
coupled
covid19
curried
dam
deeper
deer
del
describing
discourage
drawings
drivers
enhance
estimated
evil
expertly
extract
fiend
filler
finds
fixtures
fizzy
flushing
france
fructose
fryer
gel
greedy
heartbeat
humans
husbands
ignorant
improves
independent
indicating
insert
inspection
interestingly
ironically
jellys
jesus
jobs
kroger
lies
listing
martini
massaman
matching
math
measures
med
midst
mit
ml
mmmmmm
modifications
ngon
nook
obliged
observed
outs
overboard
overwhelm
packet
parks
pineapples
ponzu
potion
primary
proclaimed
profit
promote
questioned
quit
rage
refilling
reopened
resemble
responsive
resulted
roe
rou
sauced
sausages
seasonings
shipped
shocking
shoutout
simpler
sinkers
skimped
skipping
slab
slip
smores
snobby
sore
southpark
stopper
strict
summers
surf
surpassed
sweating
switching
teenager
temp
thirty
thumb
totoro
transit
trifecta
trusted
twists
unhelpful
union
unsanitary
upwards
visibly
wee
whilst
xd
##abao
##ack
##all
##atch
##bread
##cake
##cating
##ception
##cho
##core
##cot
##drated
##ducted
##east
##eats
##ench
##ensive
##entation
##fic
##fruit
##geration
##gested
##hhhh
##iation
##iel
##ifies
##ifying
##ilian
##ils
##inarily
##iously
##itate
##itions
##ivity
##js
##key
##lon
##mon
##moo
##oh
##ont
##oom
##opy
##own
##oya
##poon
##posed
##promise
##put
##rand
##rations
##ream
##ren
##rime
##rised
##rispy
##rist
##ristine
##rophobic
##ssss
##sure
##umb
##who
120
2am
6th
abroad
absent
ahhh
alex
apologizing
asparagus
awakening
bath
belgian
bim
biodegradable
blanket
brownies
casually
causes
choking
circles
classical
cleveland
client
competent
components
dd
deceived
delights
device
diary
differ
discontinued
doctor
dug
easiest
elderly
embarrassing
episode
evy
floss
gals
gentle
gin
grapes
hardest
hoo
intolerance
jasmin
jimmy
jug
kingdom
labels
lansdowne
lasted
lasts
lavendar
legitimately
lifetime
lite
majik
maximum
medical
mediterranean
minds
miscommunication
mold
museum
nation
nerve
newbies
offset
ole
optimal
outdoors
parlor
passes
perks
personalized
picnic
pin
plantains
poppin
possibilities
pricer
productive
punched
quenched
ranged
ranks
rant
reflected
remedy
reminder
reminding
rendition
residents
rly
rung
safeway
salsa
sapporo
sfu
shells
showcase
sirloin
sizing
slap
slightest
smokey
sodium
softest
specializing
specified
spiked
spotty
strongest
sunakku
swap
tab
taming
temporary
theatre
tier
tongs
torch
tortilla
tos
tossing
transactions
unappealing
unaware
united
unsweet
velvety
venmo
vote
wars
whatnot
whichever
yoghurt
yr
zenq
##!
##"
###
##$
##%
##&
##'
##(
##)
##*
##+
##,
##-
##.
##/
##:
##;
##=
##?
##@
##[
##\
##]
##^
##_
##`
##{
##|
##}
##~
##¢
##¥
##°
##·
##¿
##×
##đ
##‿
##⁄
##€
##⋯
##、
##。
##《
##》
##「
##」
##『
##』
##あ
##い
##う
##え
##お
##か
##き
##く
##け
##こ
##さ
##し
##す
##せ
##そ
##た
##ち
##っ
##つ
##て
##と
##な
##に
##の
##は
##へ
##ほ
##ま
##み
##め
##も
##ゃ
##や
##ら
##り
##る
##れ
##を
##ん
##ア
##ィ
##イ
##オ
##カ
##ク
##サ
##シ
##ス
##タ
##ッ
##ツ
##テ
##ト
##ナ
##ニ
##ハ
##ヒ
##フ
##ホ
##ミ
##メ
##モ
##ュ
##ラ
##ル
##レ
##ン
##・
##ー
##一
##丁
##七
##三
##上
##下
##不
##且
##东
##两
##个
##中
##串
##丹
##为
##主
##久
##么
##之
##乌
##乎
##也
##买
##乳
##乾
##亂
##了
##二
##于
##五
##些
##交
##亦
##享
##京
##亮
##人
##什
##仁
##今
##介
##仍
##从
##仔
##他
##仙
##代
##令
##以
##们
##价
##任
##份
##伙
##会
##似
##但
##位
##低
##住
##体
##何
##作
##你
##使
##來
##例
##供
##価
##便
##係
##保
##信
##個
##們
##倒
##候
##值
##假
##偏
##做
##停
##備
##傳
##傻
##像
##價
##優
##儿
##元
##充
##先
##光
##免
##入
##內
##全
##兩
##八
##公
##共
##关
##兴
##其
##内
##再
##写
##冬
##冰
##冷
##净
##凉
##凍
##几
##出
##分
##切
##列
##別
##刨
##利
##别
##到
##制
##刺
##刻
##剉
##前
##剛
##創
##功
##加
##务
##動
##務
##包
##化
##北
##區
##十
##千
##升
##午
##半
##单
##卖
##南
##卡
##卤
##印
##却
##卷
##厚
##原
##厲
##去
##又
##叉
##及
##友
##双
##反
##发
##取
##受
##口
##另
##只
##叫
##可
##台
##右
##号
##司
##吃
##各
##合
##同
##名
##后
##向
##吗
##吧
##吸
##告
##员
##呢
##呱
##味
##呼
##和
##品
##哈
##員
##哥
##哦
##唔
##唯
##商
##啊
##問
##啥
##啦
##善
##喔
##喜
##喝
##單
##営
##嘛
##噌
##嚮
##四
##回
##因
##国
##圆
##圈
##國
##圓
##在
##地
##均
##坐
##基
##堂
##堡
##報
##場
##境
##墙
##壁
##壓
##士
##外
##多
##夜
##够
##夠
##大
##天
##太
##夫
##失
##头
##奇
##套
##奥
##女
##奶
##她
##好
##如
##妈
##妹
##妻
##始
##姐
##姗
##娘
##嫩
##子
##存
##季
##学
##它
##安
##完
##宗
##定
##实
##実
##客
##家
##容
##寄
##富
##寒
##實
##寫
##寬
##对
##寿
##將
##對
##小
##少
##尔
##尚
##尤
##就
##局
##层
##居
##屠
##山
##嵐
##川
##工
##左
##差
##己
##已
##巷
##市
##布
##帰
##帶
##常
##干
##平
##年
##并
##幸
##幾
##底
##店
##府
##度
##座
##康
##廚
##廣
##廳
##建
##开
##式
##引
##張
##強
##强
##形
##彩
##待
##很
##律
##後
##得
##從
##復
##微
##心
##必
##忍
##忙
##快
##念
##态
##怎
##怕
##思
##性
##总
##情
##惠
##想
##意
##愛
##感
##態
##應
##成
##我
##或
##房
##所
##手
##才
##打
##找
##抄
##把
##抵
##抹
##拉
##拌
##拍
##招
##择
##拼
##拿
##持
##指
##挺
##捨
##捲
##排
##接
##控
##推
##提
##搭
##搶
##撩
##擇
##擺
##攤
##收
##改
##放
##政
##敞
##整
##數
##文
##料
##新
##方
##於
##旁
##无
##既
##日
##早
##时
##旺
##明
##星
##是
##時
##晒
##晚
##晨
##普
##智
##暖
##更
##曾
##最
##會
##月
##有
##朋
##服
##望
##期
##木
##末
##本
##杏
##村
##来
##杨
##杯
##東
##板
##极
##果
##枝
##枱
##柔
##样
##格
##桌
##桶
##梅
##條
##棒
##椅
##椒
##椰
##業
##極
##様
##樓
##模
##樣
##機
##檯
##櫃
##次
##欢
##欲
##款
##歡
##正
##每
##比
##民
##氣
##水
##汁
##求
##江
##汤
##沒
##沙
##没
##河
##油
##治
##法
##波
##注
##泰
##洋
##洗
##活
##流
##浆
##浓
##浪
##海
##消
##涼
##淡
##淨
##深
##混
##清
##温
##港
##湛
##湯
##湾
##溫
##滑
##满
##滷
##滿
##漂
##漢
##潔
##潢
##濃
##灣
##火
##炎
##炒
##炸
##点
##為
##烈
##烏
##烤
##烧
##烫
##热
##焗
##無
##然
##煎
##照
##煩
##煮
##熱
##燉
##燒
##營
##燥
##爱
##爽
##牆
##片
##牌
##牙
##牛
##物
##特
##狂
##獲
##率
##玉
##王
##环
##现
##珍
##珠
##現
##球
##理
##環
##瓜
##甘
##甚
##甜
##生
##用
##由
##異
##當
##疫
##瘋
##發
##白
##百
##的
##皇
##皮
##盐
##盒
##盖
##目
##直
##相
##看
##真
##眼
##知
##碗
##碟
##福
##种
##種
##稱
##空
##立
##第
##笼
##等
##筷
##算
##簡
##米
##类
##粉
##精
##糕
##糖
##系
##紅
##級
##素
##紫
##細
##結
##絕
##給
##絲
##經
##綠
##红
##级
##结
##给
##绝
##续
##绿
##置
##羊
##美
##群
##翅
##老
##而
##聚
##肆
##肉
##肥
##肺
##能
##脆
##腐
##腩
##腸
##腿
##膠
##自
##至
##臺
##與
##舒
##般
##良
##色
##芋
##芒
##芝
##花
##芳
##茄
##茶
##草
##荐
##莓
##菜
##華
##落
##著
##葡
##蓋
##蔥
##薦
##處
##蚵
##蛋
##蛮
##蜂
##蜜
##行
##裝
##裡
##西
##要
##見
##規
##親
##覺
##见
##觉
##解
##計
##記
##設
##註
##評
##試
##話
##該
##說
##調
##請
##謝
##讓
##讚
##让
##试
##话
##说
##谢
##豆
##豐
##豚
##象
##買
##費
##賣
##質
##贵
##费
##起
##超
##足
##距
##跟
##路
##身
##車
##較
##软
##较
##辣
##边
##过
##近
##还
##这
##连
##迫
##退
##送
##适
##选
##這
##通
##連
##週
##進
##運
##過
##道
##適
##選
##還
##邊
##那
##部
##都
##鄉
##配
##酥
##酱
##酸
##醋
##釆
##里
##重
##量
##金
##銀
##鋪
##錢
##錯
##鍋
##鐵
##钱
##错
##門
##開
##間
##闆
##间
##附
##陋
##限
##除
##隔
##隨
##难
##雖
##雞
##難
##需
##露
##青
##非
##面
##順
##頭
##題
##類
##顧
##顿
##風
##食
##飯
##飲
##飾
##餅
##餐
##館
##饭
##饮
##饺
##馆
##馒
##香
##骨
##體
##高
##鮮
##鱼
##鲜
##鸡
##鹽
##麗
##麥
##麵
##麻
##麼
##黄
##黑
##點
##齊
##龍
##龙
